#ifndef SINE_MODEL_H
#define SINE_MODEL_H


unsigned int sine_model_len = 3152;
unsigned char sine_model[] = {
 0x1c, 0x00, 0x00, 0x00, 0x54, 0x46, 0x4c, 0x33, 0x14, 0x00, 0x20, 0x00,
  0x1c, 0x00, 0x18, 0x00, 0x14, 0x00, 0x10, 0x00, 0x0c, 0x00, 0x00, 0x00,
  0x08, 0x00, 0x04, 0x00, 0x14, 0x00, 0x00, 0x00, 0x1c, 0x00, 0x00, 0x00,
  0x98, 0x00, 0x00, 0x00, 0xf0, 0x00, 0x00, 0x00, 0x14, 0x07, 0x00, 0x00,
  0x24, 0x07, 0x00, 0x00, 0xfc, 0x0b, 0x00, 0x00, 0x03, 0x00, 0x00, 0x00,
  0x01, 0x00, 0x00, 0x00, 0x10, 0x00, 0x00, 0x00, 0x00, 0x00, 0x0a, 0x00,
  0x10, 0x00, 0x0c, 0x00, 0x08, 0x00, 0x04, 0x00, 0x0a, 0x00, 0x00, 0x00,
  0x0c, 0x00, 0x00, 0x00, 0x1c, 0x00, 0x00, 0x00, 0x3c, 0x00, 0x00, 0x00,
  0x0f, 0x00, 0x00, 0x00, 0x73, 0x65, 0x72, 0x76, 0x69, 0x6e, 0x67, 0x5f,
  0x64, 0x65, 0x66, 0x61, 0x75, 0x6c, 0x74, 0x00, 0x01, 0x00, 0x00, 0x00,
  0x04, 0x00, 0x00, 0x00, 0x90, 0xff, 0xff, 0xff, 0x09, 0x00, 0x00, 0x00,
  0x04, 0x00, 0x00, 0x00, 0x08, 0x00, 0x00, 0x00, 0x6f, 0x75, 0x74, 0x70,
  0x75, 0x74, 0x5f, 0x30, 0x00, 0x00, 0x00, 0x00, 0x01, 0x00, 0x00, 0x00,
  0x04, 0x00, 0x00, 0x00, 0xba, 0xf9, 0xff, 0xff, 0x04, 0x00, 0x00, 0x00,
  0x0c, 0x00, 0x00, 0x00, 0x6b, 0x65, 0x72, 0x61, 0x73, 0x5f, 0x74, 0x65,
  0x6e, 0x73, 0x6f, 0x72, 0x00, 0x00, 0x00, 0x00, 0x02, 0x00, 0x00, 0x00,
  0x34, 0x00, 0x00, 0x00, 0x04, 0x00, 0x00, 0x00, 0xdc, 0xff, 0xff, 0xff,
  0x0c, 0x00, 0x00, 0x00, 0x04, 0x00, 0x00, 0x00, 0x13, 0x00, 0x00, 0x00,
  0x43, 0x4f, 0x4e, 0x56, 0x45, 0x52, 0x53, 0x49, 0x4f, 0x4e, 0x5f, 0x4d,
  0x45, 0x54, 0x41, 0x44, 0x41, 0x54, 0x41, 0x00, 0x08, 0x00, 0x0c, 0x00,
  0x08, 0x00, 0x04, 0x00, 0x08, 0x00, 0x00, 0x00, 0x0b, 0x00, 0x00, 0x00,
  0x04, 0x00, 0x00, 0x00, 0x13, 0x00, 0x00, 0x00, 0x6d, 0x69, 0x6e, 0x5f,
  0x72, 0x75, 0x6e, 0x74, 0x69, 0x6d, 0x65, 0x5f, 0x76, 0x65, 0x72, 0x73,
  0x69, 0x6f, 0x6e, 0x00, 0x0d, 0x00, 0x00, 0x00, 0x20, 0x06, 0x00, 0x00,
  0x18, 0x06, 0x00, 0x00, 0xc8, 0x05, 0x00, 0x00, 0xb0, 0x01, 0x00, 0x00,
  0x9c, 0x01, 0x00, 0x00, 0x4c, 0x01, 0x00, 0x00, 0xfc, 0x00, 0x00, 0x00,
  0xac, 0x00, 0x00, 0x00, 0xa4, 0x00, 0x00, 0x00, 0x9c, 0x00, 0x00, 0x00,
  0x94, 0x00, 0x00, 0x00, 0x74, 0x00, 0x00, 0x00, 0x04, 0x00, 0x00, 0x00,
  0x6a, 0xfa, 0xff, 0xff, 0x04, 0x00, 0x00, 0x00, 0x60, 0x00, 0x00, 0x00,
  0x0c, 0x00, 0x00, 0x00, 0x08, 0x00, 0x0e, 0x00, 0x08, 0x00, 0x04, 0x00,
  0x08, 0x00, 0x00, 0x00, 0x10, 0x00, 0x00, 0x00, 0x28, 0x00, 0x00, 0x00,
  0x00, 0x00, 0x06, 0x00, 0x08, 0x00, 0x04, 0x00, 0x06, 0x00, 0x00, 0x00,
  0x04, 0x00, 0x00, 0x00, 0x01, 0x00, 0x00, 0x00, 0xea, 0x03, 0x00, 0x00,
  0x0c, 0x00, 0x18, 0x00, 0x14, 0x00, 0x10, 0x00, 0x0c, 0x00, 0x04, 0x00,
  0x0c, 0x00, 0x00, 0x00, 0x81, 0x73, 0x35, 0xf5, 0x27, 0x00, 0xc7, 0x45,
  0x02, 0x00, 0x00, 0x00, 0x02, 0x00, 0x00, 0x00, 0x04, 0x00, 0x00, 0x00,
  0x06, 0x00, 0x00, 0x00, 0x32, 0x2e, 0x31, 0x37, 0x2e, 0x30, 0x00, 0x00,
  0xd6, 0xfa, 0xff, 0xff, 0x04, 0x00, 0x00, 0x00, 0x10, 0x00, 0x00, 0x00,
  0x31, 0x2e, 0x35, 0x2e, 0x30, 0x00, 0x00, 0x00, 0x00, 0x00, 0x00, 0x00,
  0x00, 0x00, 0x00, 0x00, 0xe0, 0xf5, 0xff, 0xff, 0xe4, 0xf5, 0xff, 0xff,
  0xe8, 0xf5, 0xff, 0xff, 0xfe, 0xfa, 0xff, 0xff, 0x04, 0x00, 0x00, 0x00,
  0x40, 0x00, 0x00, 0x00, 0x25, 0xa5, 0x04, 0x3f, 0x42, 0x5d, 0x08, 0x3e,
  0xd0, 0xf5, 0x81, 0xbe, 0x72, 0x32, 0xec, 0xbe, 0x2f, 0xc5, 0x49, 0x3e,
  0xe9, 0x72, 0x70, 0x3e, 0xd8, 0x9e, 0xe8, 0xbd, 0xb3, 0xfe, 0x00, 0xbf,
  0x3d, 0x73, 0x80, 0x3d, 0x0c, 0x34, 0x0c, 0xbe, 0x12, 0x83, 0xb9, 0x3e,
  0x0b, 0x8e, 0x48, 0x3e, 0x56, 0x97, 0x00, 0x3f, 0x92, 0xbb, 0x83, 0x3e,
  0xfd, 0x65, 0xba, 0x3e, 0x0a, 0x41, 0xbc, 0xbe, 0x4a, 0xfb, 0xff, 0xff,
  0x04, 0x00, 0x00, 0x00, 0x40, 0x00, 0x00, 0x00, 0xf7, 0x49, 0xaf, 0x3e,
  0xb4, 0x23, 0x03, 0xbf, 0x00, 0x00, 0x00, 0x00, 0x00, 0x00, 0x00, 0x00,
  0x0f, 0x03, 0xde, 0xbe, 0x81, 0xc9, 0x7b, 0xbb, 0x00, 0x00, 0x00, 0x00,
  0x00, 0x00, 0x00, 0x00, 0xc5, 0xab, 0x01, 0x3f, 0x00, 0x00, 0x00, 0x00,
  0xbd, 0xe3, 0x26, 0xbf, 0xc1, 0x82, 0xfd, 0xbe, 0x70, 0xa6, 0xac, 0x3c,
  0x44, 0x1f, 0xab, 0xbe, 0xaf, 0x3a, 0xf4, 0xbd, 0x00, 0x00, 0x00, 0x00,
  0x96, 0xfb, 0xff, 0xff, 0x04, 0x00, 0x00, 0x00, 0x40, 0x00, 0x00, 0x00,
  0x89, 0xa6, 0x96, 0xbc, 0x00, 0x00, 0x00, 0x00, 0xdf, 0xad, 0x6d, 0xbc,
  0x06, 0x75, 0x0e, 0xbd, 0x08, 0x70, 0x8a, 0x3e, 0x62, 0xbd, 0x4a, 0xbb,
  0x18, 0xdf, 0x8d, 0x3e, 0xdd, 0x9d, 0x2c, 0xbd, 0x99, 0x01, 0x8f, 0xbd,
  0x9a, 0x4e, 0xec, 0x3c, 0x5a, 0x9f, 0xce, 0x3b, 0xcf, 0x4c, 0x87, 0x3e,
  0x00, 0x00, 0x00, 0x00, 0x8c, 0x79, 0x72, 0xbe, 0xb8, 0x50, 0x0a, 0xbf,
  0x9b, 0x5e, 0xa5, 0xbe, 0xe2, 0xfb, 0xff, 0xff, 0x04, 0x00, 0x00, 0x00,
  0x04, 0x00, 0x00, 0x00, 0x66, 0x2d, 0x86, 0xbe, 0xf2, 0xfb, 0xff, 0xff,
  0x04, 0x00, 0x00, 0x00, 0x00, 0x04, 0x00, 0x00, 0x63, 0x5c, 0x87, 0xbd,
  0xbb, 0xcd, 0x6a, 0x3e, 0xfa, 0x0d, 0x38, 0xbe, 0x52, 0xe7, 0x1b, 0xbe,
  0x2f, 0xc2, 0xb3, 0x3d, 0x24, 0xe2, 0xda, 0xbe, 0xf5, 0xed, 0xc3, 0x3e,
  0x5d, 0x9f, 0xd5, 0x3e, 0xd9, 0xad, 0xa7, 0xbe, 0x99, 0x94, 0xd1, 0x3e,
  0x9f, 0x87, 0x99, 0x3e, 0xb3, 0x9d, 0xee, 0xbd, 0x4f, 0x70, 0x4e, 0xbe,
  0x5e, 0xfa, 0xa4, 0x3e, 0x05, 0x55, 0x21, 0x3d, 0x97, 0xc2, 0x8d, 0x3e,
  0x11, 0x94, 0x40, 0xbe, 0x78, 0x0e, 0xae, 0xbd, 0x78, 0x48, 0xc7, 0xbd,
  0xc5, 0xda, 0xa9, 0xbe, 0x8a, 0xaf, 0xa4, 0xbe, 0x72, 0xe0, 0xaf, 0xbe,
  0x62, 0xd6, 0x17, 0xbe, 0x8b, 0x0a, 0xa6, 0x3e, 0x10, 0x4f, 0x8b, 0xbe,
  0x15, 0xf6, 0xcc, 0x3e, 0xaf, 0x0d, 0x62, 0xbe, 0xcb, 0x1d, 0xa3, 0x3e,
  0xc4, 0x1b, 0xd7, 0xbe, 0x93, 0x9c, 0x87, 0x3e, 0x28, 0xf2, 0x55, 0x3d,
  0x39, 0x03, 0xd5, 0x3e, 0x1e, 0x75, 0x9a, 0x3e, 0x7e, 0x03, 0x07, 0xbf,
  0xcb, 0x34, 0xcb, 0xbe, 0x36, 0xe7, 0x05, 0x3e, 0xe0, 0x6e, 0x93, 0xbd,
  0xa2, 0xbe, 0x4a, 0xbe, 0xa7, 0xae, 0xc2, 0xbe, 0xc8, 0x98, 0x49, 0xbe,
  0xcf, 0xc5, 0x86, 0xbe, 0xdf, 0xb9, 0x64, 0xbe, 0xaf, 0xca, 0xd0, 0xbe,
  0xfe, 0x13, 0xd9, 0xbd, 0x4d, 0xa4, 0xfe, 0x3d, 0xf4, 0xc4, 0xbe, 0x3e,
  0x6b, 0xec, 0x8d, 0x3e, 0x6a, 0xea, 0x1a, 0xbe, 0xe2, 0xd4, 0x89, 0x3e,
  0x2a, 0x7a, 0x05, 0xbe, 0x1a, 0xdc, 0xbc, 0xbe, 0xac, 0xf8, 0x9d, 0xbd,
  0xdc, 0x84, 0xbd, 0x3c, 0xf7, 0x0e, 0xc8, 0x3e, 0x23, 0xb2, 0x5d, 0xbe,
  0x20, 0x38, 0x35, 0xbd, 0xd8, 0xb3, 0x59, 0x3e, 0x20, 0x18, 0xec, 0x3c,
  0x89, 0x86, 0x8a, 0xbe, 0xa9, 0xe0, 0xc4, 0xba, 0x1a, 0x00, 0x83, 0x3e,
  0xe3, 0xb8, 0xa1, 0x3e, 0x95, 0x3f, 0xb7, 0xbd, 0x50, 0x51, 0x31, 0xbe,
  0xcd, 0x91, 0x28, 0xbe, 0xac, 0x94, 0x71, 0x3d, 0x0a, 0x21, 0x98, 0xbe,
  0x78, 0x37, 0x98, 0xbd, 0x7c, 0x34, 0x58, 0x3e, 0x16, 0x60, 0x1d, 0xbf,
  0x20, 0x99, 0x58, 0x3d, 0x00, 0x33, 0xad, 0x3c, 0x8c, 0x55, 0xf1, 0x3e,
  0x92, 0x92, 0x1c, 0x3e, 0xba, 0x26, 0x80, 0xbd, 0x05, 0xef, 0xb6, 0x3e,
  0x84, 0xf0, 0xfd, 0xbe, 0x07, 0xdf, 0x00, 0xbf, 0x4b, 0xcc, 0x94, 0xbe,
  0x7e, 0x5b, 0xd0, 0xbe, 0xc6, 0x35, 0x88, 0xbe, 0x30, 0xf7, 0x63, 0xbd,
  0x8f, 0xba, 0xc7, 0xbe, 0x06, 0x8e, 0xbc, 0xbe, 0xcd, 0x14, 0x85, 0x3e,
  0x6b, 0x6f, 0x3d, 0xbd, 0xf0, 0x5e, 0xd4, 0x3c, 0xb9, 0x7e, 0xd7, 0xbe,
  0x4e, 0x98, 0xc8, 0xbd, 0x79, 0x01, 0xd9, 0xbe, 0xc0, 0x61, 0x47, 0xbe,
  0x6c, 0x17, 0xbb, 0xbd, 0xd0, 0x42, 0x07, 0xbd, 0x58, 0x3b, 0xc6, 0x3e,
  0x76, 0xd5, 0x2b, 0xbe, 0x50, 0x61, 0xbe, 0xbe, 0xad, 0xc9, 0xdb, 0x3e,
  0x3c, 0xd9, 0x50, 0x3d, 0xad, 0xae, 0xb9, 0x3e, 0x36, 0x13, 0x47, 0x3e,
  0xa0, 0xc7, 0x39, 0xbf, 0x2d, 0x1f, 0xec, 0x3d, 0xfc, 0x65, 0xd3, 0x3d,
  0xc7, 0xa6, 0xb0, 0x3e, 0xc1, 0xcc, 0x4b, 0xbe, 0x0c, 0x5c, 0xf4, 0x3d,
  0xa3, 0x5e, 0x25, 0xbf, 0xdb, 0x23, 0x05, 0xbf, 0x95, 0x2f, 0x6b, 0x3d,
  0xd5, 0x21, 0x20, 0xbf, 0x0f, 0x1b, 0x30, 0x3c, 0x8c, 0x1f, 0x1a, 0xbe,
  0x7d, 0xb6, 0xc1, 0xbe, 0xff, 0x52, 0x63, 0x3e, 0xd2, 0xa2, 0x40, 0x3e,
  0x40, 0xea, 0x97, 0xbe, 0x79, 0xdd, 0xc5, 0x3e, 0x7b, 0x52, 0x6f, 0xbe,
  0xed, 0x0b, 0xd5, 0x3e, 0xb2, 0xac, 0xb1, 0xbe, 0x90, 0x05, 0xd1, 0xbd,
  0x04, 0x6c, 0xcb, 0x3d, 0x50, 0x8b, 0x16, 0x3d, 0xff, 0x41, 0xda, 0xbe,
  0x00, 0xc1, 0xbf, 0x3e, 0x80, 0xbc, 0x4f, 0x3c, 0x5e, 0x60, 0xb1, 0xbe,
  0x7d, 0x98, 0xa3, 0xbe, 0xb0, 0x85, 0xac, 0xbe, 0xf5, 0x36, 0x97, 0xbe,
  0xce, 0x6b, 0x4f, 0x3e, 0x0d, 0x91, 0xd6, 0x3e, 0xf3, 0xf9, 0xb2, 0x3e,
  0xca, 0x53, 0xd5, 0xbe, 0x02, 0x46, 0xb7, 0xbe, 0x5f, 0xe9, 0xc3, 0xbe,
  0xae, 0x18, 0xbd, 0x3e, 0x70, 0x49, 0x87, 0x3c, 0x9c, 0x36, 0x82, 0xbd,
  0xf8, 0xdb, 0xa3, 0xbe, 0x03, 0xc6, 0xe5, 0xbe, 0xcd, 0x8c, 0xb4, 0x3e,
  0x21, 0xb5, 0x82, 0xbe, 0x40, 0xd7, 0xae, 0xbc, 0xb9, 0x16, 0xec, 0x3d,
  0x5f, 0xc4, 0x42, 0xbe, 0x3a, 0xdb, 0x18, 0x3e, 0x5c, 0xfd, 0xf8, 0x3d,
  0xc2, 0x30, 0x5a, 0xbe, 0x5c, 0x83, 0x01, 0x3f, 0x3d, 0x22, 0xca, 0x3e,
  0xfb, 0x7c, 0xd5, 0xbe, 0xc6, 0x07, 0xc8, 0x3d, 0x96, 0x9b, 0x4e, 0x3e,
  0xd3, 0x4a, 0x3c, 0x3e, 0xb1, 0xfc, 0x4c, 0xbe, 0x5c, 0x48, 0xc6, 0xbd,
  0x30, 0xb8, 0x81, 0x3e, 0x2d, 0x13, 0x1b, 0xbe, 0x47, 0xbf, 0x72, 0xbe,
  0x20, 0xce, 0xc0, 0x3e, 0x5a, 0x3c, 0x08, 0xbf, 0x5c, 0xd6, 0x8f, 0x3d,
  0x04, 0xa8, 0xcd, 0xbd, 0xba, 0x0f, 0x96, 0xbd, 0xcb, 0x1c, 0x90, 0x3e,
  0x9d, 0x33, 0xd0, 0xbe, 0xcf, 0x58, 0xc2, 0x3e, 0x8e, 0xe5, 0x2e, 0x3c,
  0x9b, 0x77, 0xb8, 0x3e, 0x24, 0x99, 0xac, 0x3d, 0x64, 0x5a, 0x34, 0xbe,
  0x86, 0x97, 0x68, 0xbe, 0xf3, 0x9c, 0x9e, 0x3e, 0xcd, 0xac, 0x11, 0x3e,
  0x40, 0xe8, 0xc7, 0xbc, 0x51, 0xb3, 0x32, 0x3e, 0xc0, 0x5a, 0xd0, 0xbe,
  0xe3, 0xac, 0xbe, 0x3e, 0xe7, 0xe0, 0x88, 0xbe, 0xce, 0x89, 0xcf, 0xbe,
  0x72, 0xa2, 0xc1, 0xbd, 0x78, 0x70, 0x56, 0xbd, 0x66, 0x37, 0x4a, 0x3e,
  0x15, 0x80, 0x0c, 0x3e, 0x0b, 0x35, 0xca, 0x3e, 0x50, 0x58, 0x39, 0xbf,
  0xe9, 0xb4, 0x77, 0xbf, 0x85, 0xd0, 0xb3, 0x3e, 0x5e, 0x73, 0xa4, 0xbe,
  0xb6, 0x70, 0x04, 0x3d, 0x14, 0x92, 0x81, 0xbd, 0x10, 0x22, 0xcd, 0xbe,
  0x9c, 0x79, 0x8d, 0xbd, 0x58, 0x78, 0x3c, 0x3d, 0xcc, 0x78, 0xef, 0xbd,
  0x88, 0x46, 0x24, 0x3d, 0x18, 0xc6, 0x97, 0xbe, 0xc9, 0xa2, 0xa5, 0x3e,
  0x84, 0x41, 0xcc, 0x3d, 0x10, 0x85, 0x23, 0x3d, 0xfc, 0x5e, 0xd0, 0xbe,
  0xae, 0xac, 0x3b, 0x3e, 0x8a, 0x2b, 0x17, 0x3e, 0x15, 0xe5, 0xbe, 0xbe,
  0x04, 0x7a, 0xee, 0x3d, 0x10, 0xee, 0x9e, 0x3c, 0x34, 0x6e, 0xde, 0x3d,
  0xb5, 0x21, 0xb4, 0x3e, 0x83, 0x01, 0x8c, 0x3d, 0xae, 0xad, 0x7d, 0x3e,
  0xfe, 0xe8, 0x71, 0x3e, 0x16, 0xa9, 0x59, 0xbd, 0x76, 0xe3, 0x23, 0x3d,
  0x0c, 0x72, 0xb0, 0x3d, 0x8a, 0x15, 0x20, 0x3e, 0x6a, 0xb6, 0x01, 0xbe,
  0x74, 0xa4, 0x8c, 0xbe, 0xcd, 0xa8, 0x7d, 0x3e, 0x34, 0x26, 0xb0, 0x3e,
  0x03, 0x55, 0x0f, 0x3c, 0x3f, 0x6a, 0xa4, 0x3e, 0x5b, 0x18, 0xaa, 0x3e,
  0x70, 0x85, 0xa4, 0xbe, 0xfa, 0xf1, 0xe4, 0xbe, 0xbb, 0x64, 0x37, 0x3f,
  0x64, 0xa0, 0xe5, 0x3d, 0x6b, 0xef, 0x3b, 0xbe, 0xa3, 0xed, 0x14, 0x3f,
  0x3f, 0xcd, 0x5b, 0x3e, 0x11, 0xb5, 0xb8, 0xbe, 0x54, 0x29, 0xa1, 0xbe,
  0x64, 0x97, 0x07, 0xbf, 0x60, 0x87, 0x57, 0xbc, 0xe4, 0x3a, 0x1f, 0x3f,
  0x10, 0x9d, 0x61, 0x3e, 0xd6, 0xba, 0x6f, 0x3e, 0x90, 0xa0, 0xc1, 0x3d,
  0xae, 0x8c, 0xee, 0x3c, 0xaa, 0x81, 0x9a, 0xbe, 0x99, 0xe2, 0x33, 0xbe,
  0xa1, 0x55, 0x85, 0x3e, 0x3c, 0xc7, 0xb8, 0xbd, 0x0e, 0x74, 0x5d, 0x3e,
  0x14, 0x27, 0x03, 0xbe, 0x04, 0x3e, 0xa8, 0x3d, 0xc3, 0x1e, 0x4b, 0xbe,
  0x6e, 0x49, 0x63, 0x3e, 0x3c, 0xda, 0xeb, 0xbe, 0x0a, 0xb4, 0x7f, 0x3e,
  0x24, 0xb8, 0x00, 0x3f, 0x69, 0x66, 0x22, 0x3f, 0x6d, 0x21, 0x50, 0x3e,
  0xe2, 0xd5, 0xd0, 0xbd, 0xb4, 0x62, 0x87, 0x3e, 0xa5, 0x59, 0xa3, 0x3e,
  0x00, 0x00, 0x06, 0x00, 0x08, 0x00, 0x04, 0x00, 0x06, 0x00, 0x00, 0x00,
  0x04, 0x00, 0x00, 0x00, 0x40, 0x00, 0x00, 0x00, 0x8c, 0xd8, 0x8f, 0x3e,
  0x00, 0xa2, 0xed, 0x3d, 0x72, 0xdf, 0x13, 0xbf, 0x8b, 0xf9, 0x31, 0xbe,
  0xc3, 0x2d, 0x81, 0xbf, 0x5c, 0x94, 0xf1, 0x3e, 0xdd, 0xa3, 0x8c, 0x3f,
  0xfd, 0xd1, 0x0d, 0x3f, 0x10, 0x7f, 0x17, 0x3e, 0x3f, 0x75, 0x02, 0xbf,
  0x9b, 0x56, 0x19, 0xbe, 0xc1, 0x6b, 0x99, 0x3f, 0xc4, 0x0a, 0x28, 0xbe,
  0x06, 0x2c, 0x66, 0x3e, 0xd3, 0x5e, 0xb4, 0x3f, 0xc6, 0x9f, 0xcf, 0x3e,
  0x40, 0xfb, 0xff, 0xff, 0x44, 0xfb, 0xff, 0xff, 0x0f, 0x00, 0x00, 0x00,
  0x4d, 0x4c, 0x49, 0x52, 0x20, 0x43, 0x6f, 0x6e, 0x76, 0x65, 0x72, 0x74,
  0x65, 0x64, 0x2e, 0x00, 0x01, 0x00, 0x00, 0x00, 0x14, 0x00, 0x00, 0x00,
  0x00, 0x00, 0x0e, 0x00, 0x18, 0x00, 0x14, 0x00, 0x10, 0x00, 0x0c, 0x00,
  0x08, 0x00, 0x04, 0x00, 0x0e, 0x00, 0x00, 0x00, 0x14, 0x00, 0x00, 0x00,
  0x1c, 0x00, 0x00, 0x00, 0xd8, 0x00, 0x00, 0x00, 0xdc, 0x00, 0x00, 0x00,
  0xe0, 0x00, 0x00, 0x00, 0x04, 0x00, 0x00, 0x00, 0x6d, 0x61, 0x69, 0x6e,
  0x00, 0x00, 0x00, 0x00, 0x03, 0x00, 0x00, 0x00, 0x80, 0x00, 0x00, 0x00,
  0x38, 0x00, 0x00, 0x00, 0x04, 0x00, 0x00, 0x00, 0x9a, 0xff, 0xff, 0xff,
  0x10, 0x00, 0x00, 0x00, 0x00, 0x00, 0x00, 0x08, 0x0c, 0x00, 0x00, 0x00,
  0x10, 0x00, 0x00, 0x00, 0xbc, 0xfb, 0xff, 0xff, 0x01, 0x00, 0x00, 0x00,
  0x09, 0x00, 0x00, 0x00, 0x03, 0x00, 0x00, 0x00, 0x08, 0x00, 0x00, 0x00,
  0x01, 0x00, 0x00, 0x00, 0x03, 0x00, 0x00, 0x00, 0xca, 0xff, 0xff, 0xff,
  0x10, 0x00, 0x00, 0x00, 0x00, 0x00, 0x00, 0x08, 0x10, 0x00, 0x00, 0x00,
  0x14, 0x00, 0x00, 0x00, 0xba, 0xff, 0xff, 0xff, 0x00, 0x00, 0x00, 0x01,
  0x01, 0x00, 0x00, 0x00, 0x08, 0x00, 0x00, 0x00, 0x03, 0x00, 0x00, 0x00,
  0x07, 0x00, 0x00, 0x00, 0x02, 0x00, 0x00, 0x00, 0x04, 0x00, 0x00, 0x00,
  0x00, 0x00, 0x0e, 0x00, 0x16, 0x00, 0x00, 0x00, 0x10, 0x00, 0x0c, 0x00,
  0x0b, 0x00, 0x04, 0x00, 0x0e, 0x00, 0x00, 0x00, 0x18, 0x00, 0x00, 0x00,
  0x00, 0x00, 0x00, 0x08, 0x18, 0x00, 0x00, 0x00, 0x1c, 0x00, 0x00, 0x00,
  0x00, 0x00, 0x06, 0x00, 0x08, 0x00, 0x07, 0x00, 0x06, 0x00, 0x00, 0x00,
  0x00, 0x00, 0x00, 0x01, 0x01, 0x00, 0x00, 0x00, 0x07, 0x00, 0x00, 0x00,
  0x03, 0x00, 0x00, 0x00, 0x00, 0x00, 0x00, 0x00, 0x06, 0x00, 0x00, 0x00,
  0x05, 0x00, 0x00, 0x00, 0x01, 0x00, 0x00, 0x00, 0x09, 0x00, 0x00, 0x00,
  0x01, 0x00, 0x00, 0x00, 0x00, 0x00, 0x00, 0x00, 0x0a, 0x00, 0x00, 0x00,
  0x6c, 0x03, 0x00, 0x00, 0x14, 0x03, 0x00, 0x00, 0xbc, 0x02, 0x00, 0x00,
  0x80, 0x02, 0x00, 0x00, 0x28, 0x02, 0x00, 0x00, 0xd4, 0x01, 0x00, 0x00,
  0x88, 0x01, 0x00, 0x00, 0xf8, 0x00, 0x00, 0x00, 0x60, 0x00, 0x00, 0x00,
  0x04, 0x00, 0x00, 0x00, 0xd2, 0xfc, 0xff, 0xff, 0x00, 0x00, 0x00, 0x01,
  0x14, 0x00, 0x00, 0x00, 0x1c, 0x00, 0x00, 0x00, 0x1c, 0x00, 0x00, 0x00,
  0x0a, 0x00, 0x00, 0x00, 0x34, 0x00, 0x00, 0x00, 0x02, 0x00, 0x00, 0x00,
  0xff, 0xff, 0xff, 0xff, 0x01, 0x00, 0x00, 0x00, 0xbc, 0xfc, 0xff, 0xff,
  0x1b, 0x00, 0x00, 0x00, 0x53, 0x74, 0x61, 0x74, 0x65, 0x66, 0x75, 0x6c,
  0x50, 0x61, 0x72, 0x74, 0x69, 0x74, 0x69, 0x6f, 0x6e, 0x65, 0x64, 0x43,
  0x61, 0x6c, 0x6c, 0x5f, 0x31, 0x3a, 0x30, 0x00, 0x02, 0x00, 0x00, 0x00,
  0x01, 0x00, 0x00, 0x00, 0x01, 0x00, 0x00, 0x00, 0x2a, 0xfd, 0xff, 0xff,
  0x00, 0x00, 0x00, 0x01, 0x14, 0x00, 0x00, 0x00, 0x1c, 0x00, 0x00, 0x00,
  0x1c, 0x00, 0x00, 0x00, 0x09, 0x00, 0x00, 0x00, 0x70, 0x00, 0x00, 0x00,
  0x02, 0x00, 0x00, 0x00, 0xff, 0xff, 0xff, 0xff, 0x10, 0x00, 0x00, 0x00,
  0x14, 0xfd, 0xff, 0xff, 0x54, 0x00, 0x00, 0x00, 0x73, 0x65, 0x71, 0x75,
  0x65, 0x6e, 0x74, 0x69, 0x61, 0x6c, 0x5f, 0x31, 0x2f, 0x64, 0x65, 0x6e,
  0x73, 0x65, 0x5f, 0x31, 0x5f, 0x32, 0x2f, 0x4d, 0x61, 0x74, 0x4d, 0x75,
  0x6c, 0x3b, 0x73, 0x65, 0x71, 0x75, 0x65, 0x6e, 0x74, 0x69, 0x61, 0x6c,
  0x5f, 0x31, 0x2f, 0x64, 0x65, 0x6e, 0x73, 0x65, 0x5f, 0x31, 0x5f, 0x32,
  0x2f, 0x52, 0x65, 0x6c, 0x75, 0x3b, 0x73, 0x65, 0x71, 0x75, 0x65, 0x6e,
  0x74, 0x69, 0x61, 0x6c, 0x5f, 0x31, 0x2f, 0x64, 0x65, 0x6e, 0x73, 0x65,
  0x5f, 0x31, 0x5f, 0x32, 0x2f, 0x41, 0x64, 0x64, 0x00, 0x00, 0x00, 0x00,
  0x02, 0x00, 0x00, 0x00, 0x01, 0x00, 0x00, 0x00, 0x10, 0x00, 0x00, 0x00,
  0xbe, 0xfd, 0xff, 0xff, 0x00, 0x00, 0x00, 0x01, 0x14, 0x00, 0x00, 0x00,
  0x1c, 0x00, 0x00, 0x00, 0x1c, 0x00, 0x00, 0x00, 0x08, 0x00, 0x00, 0x00,
  0x68, 0x00, 0x00, 0x00, 0x02, 0x00, 0x00, 0x00, 0xff, 0xff, 0xff, 0xff,
  0x10, 0x00, 0x00, 0x00, 0xa8, 0xfd, 0xff, 0xff, 0x4e, 0x00, 0x00, 0x00,
  0x73, 0x65, 0x71, 0x75, 0x65, 0x6e, 0x74, 0x69, 0x61, 0x6c, 0x5f, 0x31,
  0x2f, 0x64, 0x65, 0x6e, 0x73, 0x65, 0x5f, 0x31, 0x2f, 0x4d, 0x61, 0x74,
  0x4d, 0x75, 0x6c, 0x3b, 0x73, 0x65, 0x71, 0x75, 0x65, 0x6e, 0x74, 0x69,
  0x61, 0x6c, 0x5f, 0x31, 0x2f, 0x64, 0x65, 0x6e, 0x73, 0x65, 0x5f, 0x31,
  0x2f, 0x52, 0x65, 0x6c, 0x75, 0x3b, 0x73, 0x65, 0x71, 0x75, 0x65, 0x6e,
  0x74, 0x69, 0x61, 0x6c, 0x5f, 0x31, 0x2f, 0x64, 0x65, 0x6e, 0x73, 0x65,
  0x5f, 0x31, 0x2f, 0x41, 0x64, 0x64, 0x00, 0x00, 0x02, 0x00, 0x00, 0x00,
  0x01, 0x00, 0x00, 0x00, 0x10, 0x00, 0x00, 0x00, 0x9e, 0xfe, 0xff, 0xff,
  0x00, 0x00, 0x00, 0x01, 0x10, 0x00, 0x00, 0x00, 0x10, 0x00, 0x00, 0x00,
  0x07, 0x00, 0x00, 0x00, 0x28, 0x00, 0x00, 0x00, 0x24, 0xfe, 0xff, 0xff,
  0x1b, 0x00, 0x00, 0x00, 0x73, 0x65, 0x71, 0x75, 0x65, 0x6e, 0x74, 0x69,
  0x61, 0x6c, 0x5f, 0x31, 0x2f, 0x64, 0x65, 0x6e, 0x73, 0x65, 0x5f, 0x31,
  0x2f, 0x4d, 0x61, 0x74, 0x4d, 0x75, 0x6c, 0x00, 0x02, 0x00, 0x00, 0x00,
  0x10, 0x00, 0x00, 0x00, 0x01, 0x00, 0x00, 0x00, 0xe6, 0xfe, 0xff, 0xff,
  0x00, 0x00, 0x00, 0x01, 0x10, 0x00, 0x00, 0x00, 0x10, 0x00, 0x00, 0x00,
  0x06, 0x00, 0x00, 0x00, 0x34, 0x00, 0x00, 0x00, 0x6c, 0xfe, 0xff, 0xff,
  0x27, 0x00, 0x00, 0x00, 0x73, 0x65, 0x71, 0x75, 0x65, 0x6e, 0x74, 0x69,
  0x61, 0x6c, 0x5f, 0x31, 0x2f, 0x64, 0x65, 0x6e, 0x73, 0x65, 0x5f, 0x31,
  0x2f, 0x41, 0x64, 0x64, 0x2f, 0x52, 0x65, 0x61, 0x64, 0x56, 0x61, 0x72,
  0x69, 0x61, 0x62, 0x6c, 0x65, 0x4f, 0x70, 0x00, 0x01, 0x00, 0x00, 0x00,
  0x10, 0x00, 0x00, 0x00, 0x36, 0xff, 0xff, 0xff, 0x00, 0x00, 0x00, 0x01,
  0x10, 0x00, 0x00, 0x00, 0x10, 0x00, 0x00, 0x00, 0x05, 0x00, 0x00, 0x00,
  0x38, 0x00, 0x00, 0x00, 0xbc, 0xfe, 0xff, 0xff, 0x29, 0x00, 0x00, 0x00,
  0x73, 0x65, 0x71, 0x75, 0x65, 0x6e, 0x74, 0x69, 0x61, 0x6c, 0x5f, 0x31,
  0x2f, 0x64, 0x65, 0x6e, 0x73, 0x65, 0x5f, 0x31, 0x5f, 0x32, 0x2f, 0x41,
  0x64, 0x64, 0x2f, 0x52, 0x65, 0x61, 0x64, 0x56, 0x61, 0x72, 0x69, 0x61,
  0x62, 0x6c, 0x65, 0x4f, 0x70, 0x00, 0x00, 0x00, 0x01, 0x00, 0x00, 0x00,
  0x10, 0x00, 0x00, 0x00, 0x8a, 0xff, 0xff, 0xff, 0x00, 0x00, 0x00, 0x01,
  0x10, 0x00, 0x00, 0x00, 0x10, 0x00, 0x00, 0x00, 0x04, 0x00, 0x00, 0x00,
  0x1c, 0x00, 0x00, 0x00, 0x10, 0xff, 0xff, 0xff, 0x0f, 0x00, 0x00, 0x00,
  0x61, 0x72, 0x69, 0x74, 0x68, 0x2e, 0x63, 0x6f, 0x6e, 0x73, 0x74, 0x61,
  0x6e, 0x74, 0x32, 0x00, 0x01, 0x00, 0x00, 0x00, 0x01, 0x00, 0x00, 0x00,
  0xc2, 0xff, 0xff, 0xff, 0x00, 0x00, 0x00, 0x01, 0x10, 0x00, 0x00, 0x00,
  0x10, 0x00, 0x00, 0x00, 0x03, 0x00, 0x00, 0x00, 0x1c, 0x00, 0x00, 0x00,
  0x48, 0xff, 0xff, 0xff, 0x0f, 0x00, 0x00, 0x00, 0x61, 0x72, 0x69, 0x74,
  0x68, 0x2e, 0x63, 0x6f, 0x6e, 0x73, 0x74, 0x61, 0x6e, 0x74, 0x31, 0x00,
  0x02, 0x00, 0x00, 0x00, 0x10, 0x00, 0x00, 0x00, 0x10, 0x00, 0x00, 0x00,
  0x00, 0x00, 0x16, 0x00, 0x18, 0x00, 0x14, 0x00, 0x00, 0x00, 0x10, 0x00,
  0x0c, 0x00, 0x08, 0x00, 0x00, 0x00, 0x00, 0x00, 0x00, 0x00, 0x07, 0x00,
  0x16, 0x00, 0x00, 0x00, 0x00, 0x00, 0x00, 0x01, 0x10, 0x00, 0x00, 0x00,
  0x10, 0x00, 0x00, 0x00, 0x02, 0x00, 0x00, 0x00, 0x1c, 0x00, 0x00, 0x00,
  0x9c, 0xff, 0xff, 0xff, 0x0e, 0x00, 0x00, 0x00, 0x61, 0x72, 0x69, 0x74,
  0x68, 0x2e, 0x63, 0x6f, 0x6e, 0x73, 0x74, 0x61, 0x6e, 0x74, 0x00, 0x00,
  0x02, 0x00, 0x00, 0x00, 0x01, 0x00, 0x00, 0x00, 0x10, 0x00, 0x00, 0x00,
  0x00, 0x00, 0x16, 0x00, 0x1c, 0x00, 0x18, 0x00, 0x00, 0x00, 0x14, 0x00,
  0x10, 0x00, 0x0c, 0x00, 0x00, 0x00, 0x00, 0x00, 0x08, 0x00, 0x07, 0x00,
  0x16, 0x00, 0x00, 0x00, 0x00, 0x00, 0x00, 0x01, 0x14, 0x00, 0x00, 0x00,
  0x20, 0x00, 0x00, 0x00, 0x20, 0x00, 0x00, 0x00, 0x01, 0x00, 0x00, 0x00,
  0x3c, 0x00, 0x00, 0x00, 0x02, 0x00, 0x00, 0x00, 0xff, 0xff, 0xff, 0xff,
  0x01, 0x00, 0x00, 0x00, 0x04, 0x00, 0x04, 0x00, 0x04, 0x00, 0x00, 0x00,
  0x1e, 0x00, 0x00, 0x00, 0x73, 0x65, 0x72, 0x76, 0x69, 0x6e, 0x67, 0x5f,
  0x64, 0x65, 0x66, 0x61, 0x75, 0x6c, 0x74, 0x5f, 0x6b, 0x65, 0x72, 0x61,
  0x73, 0x5f, 0x74, 0x65, 0x6e, 0x73, 0x6f, 0x72, 0x3a, 0x30, 0x00, 0x00,
  0x02, 0x00, 0x00, 0x00, 0x01, 0x00, 0x00, 0x00, 0x01, 0x00, 0x00, 0x00,
  0x01, 0x00, 0x00, 0x00, 0x10, 0x00, 0x00, 0x00, 0x0c, 0x00, 0x0c, 0x00,
  0x0b, 0x00, 0x00, 0x00, 0x00, 0x00, 0x04, 0x00, 0x0c, 0x00, 0x00, 0x00,
  0x09, 0x00, 0x00, 0x00, 0x00, 0x00, 0x00, 0x09
};

#endif //SINE_MODEL_H